// Auto-generated float TFLite model
#ifndef CALORIE_MODEL_FLOAT_H
#define CALORIE_MODEL_FLOAT_H

alignas(16) const unsigned char calorie_nn_float_tflite[] = {
  28, 0, 0, 0, 84, 70, 76, 51, 20, 0, 32, 0, 
  28, 0, 24, 0, 20, 0, 16, 0, 12, 0, 0, 0, 
  8, 0, 4, 0, 20, 0, 0, 0, 28, 0, 0, 0, 
  152, 0, 0, 0, 240, 0, 0, 0, 20, 41, 0, 0, 
  36, 41, 0, 0, 12, 46, 0, 0, 3, 0, 0, 0, 
  1, 0, 0, 0, 16, 0, 0, 0, 0, 0, 10, 0, 
  16, 0, 12, 0, 8, 0, 4, 0, 10, 0, 0, 0, 
  12, 0, 0, 0, 28, 0, 0, 0, 60, 0, 0, 0, 
  15, 0, 0, 0, 115, 101, 114, 118, 105, 110, 103, 95, 
  100, 101, 102, 97, 117, 108, 116, 0, 1, 0, 0, 0, 
  4, 0, 0, 0, 144, 255, 255, 255, 9, 0, 0, 0, 
  4, 0, 0, 0, 8, 0, 0, 0, 111, 117, 116, 112, 
  117, 116, 95, 48, 0, 0, 0, 0, 1, 0, 0, 0, 
  4, 0, 0, 0, 250, 215, 255, 255, 4, 0, 0, 0, 
  12, 0, 0, 0, 107, 101, 114, 97, 115, 95, 116, 101, 
  110, 115, 111, 114, 0, 0, 0, 0, 2, 0, 0, 0, 
  52, 0, 0, 0, 4, 0, 0, 0, 220, 255, 255, 255, 
  12, 0, 0, 0, 4, 0, 0, 0, 19, 0, 0, 0, 
  67, 79, 78, 86, 69, 82, 83, 73, 79, 78, 95, 77, 
  69, 84, 65, 68, 65, 84, 65, 0, 8, 0, 12, 0, 
  8, 0, 4, 0, 8, 0, 0, 0, 11, 0, 0, 0, 
  4, 0, 0, 0, 19, 0, 0, 0, 109, 105, 110, 95, 
  114, 117, 110, 116, 105, 109, 101, 95, 118, 101, 114, 115, 
  105, 111, 110, 0, 13, 0, 0, 0, 32, 40, 0, 0, 
  24, 40, 0, 0, 136, 39, 0, 0, 112, 7, 0, 0, 
  92, 7, 0, 0, 204, 6, 0, 0, 188, 5, 0, 0, 
  172, 0, 0, 0, 164, 0, 0, 0, 156, 0, 0, 0, 
  148, 0, 0, 0, 116, 0, 0, 0, 4, 0, 0, 0, 
  170, 216, 255, 255, 4, 0, 0, 0, 96, 0, 0, 0, 
  16, 0, 0, 0, 0, 0, 0, 0, 8, 0, 14, 0, 
  8, 0, 4, 0, 8, 0, 0, 0, 16, 0, 0, 0, 
  36, 0, 0, 0, 0, 0, 6, 0, 8, 0, 4, 0, 
  6, 0, 0, 0, 4, 0, 0, 0, 0, 0, 0, 0, 
  12, 0, 24, 0, 20, 0, 16, 0, 12, 0, 4, 0, 
  12, 0, 0, 0, 68, 226, 119, 5, 28, 182, 88, 26, 
  2, 0, 0, 0, 2, 0, 0, 0, 4, 0, 0, 0, 
  6, 0, 0, 0, 50, 46, 49, 57, 46, 48, 0, 0, 
  22, 217, 255, 255, 4, 0, 0, 0, 16, 0, 0, 0, 
  49, 46, 53, 46, 48, 0, 0, 0, 0, 0, 0, 0, 
  0, 0, 0, 0, 208, 211, 255, 255, 212, 211, 255, 255, 
  216, 211, 255, 255, 62, 217, 255, 255, 4, 0, 0, 0, 
  0, 5, 0, 0, 149, 190, 66, 62, 132, 69, 95, 188, 
  242, 193, 0, 63, 254, 212, 80, 62, 221, 8, 43, 63, 
  253, 130, 42, 62, 202, 216, 164, 61, 93, 234, 168, 62, 
  45, 215, 243, 61, 169, 156, 90, 191, 24, 140, 220, 189, 
  22, 12, 53, 190, 117, 191, 7, 63, 17, 180, 123, 188, 
  255, 116, 38, 191, 23, 70, 135, 62, 50, 204, 2, 62, 
  219, 121, 138, 189, 27, 76, 10, 63, 18, 183, 81, 62, 
  188, 86, 119, 61, 183, 254, 215, 189, 0, 160, 69, 62, 
  12, 52, 106, 62, 105, 204, 9, 63, 42, 90, 241, 188, 
  176, 43, 14, 190, 62, 22, 112, 62, 71, 169, 239, 61, 
  21, 40, 47, 63, 76, 130, 97, 190, 217, 199, 179, 190, 
  209, 118, 68, 60, 239, 86, 12, 190, 90, 26, 11, 191, 
  162, 250, 91, 62, 219, 184, 34, 189, 253, 33, 83, 189, 
  40, 94, 249, 62, 84, 54, 158, 190, 161, 217, 132, 189, 
  73, 170, 108, 190, 40, 8, 171, 189, 210, 33, 183, 190, 
  3, 131, 172, 190, 45, 215, 193, 62, 176, 254, 161, 62, 
  208, 69, 17, 63, 5, 194, 135, 62, 213, 164, 128, 62, 
  165, 122, 192, 60, 218, 15, 200, 59, 43, 247, 31, 63, 
  128, 232, 150, 62, 146, 63, 181, 62, 244, 191, 137, 62, 
  185, 149, 16, 61, 30, 227, 194, 62, 186, 193, 171, 62, 
  30, 90, 197, 190, 182, 98, 21, 59, 145, 34, 248, 188, 
  191, 187, 218, 62, 20, 185, 12, 189, 174, 119, 159, 62, 
  95, 247, 93, 61, 36, 52, 172, 62, 23, 145, 165, 60, 
  199, 199, 39, 62, 5, 152, 57, 63, 229, 151, 166, 62, 
  148, 155, 29, 62, 99, 80, 110, 62, 241, 92, 19, 63, 
  17, 201, 234, 190, 154, 104, 194, 61, 249, 163, 155, 61, 
  202, 12, 97, 62, 192, 150, 120, 62, 190, 17, 143, 62, 
  90, 154, 14, 61, 49, 23, 158, 60, 227, 51, 168, 62, 
  37, 188, 91, 62, 254, 113, 125, 191, 126, 161, 79, 61, 
  155, 194, 52, 190, 31, 55, 125, 62, 100, 60, 108, 62, 
  106, 26, 161, 62, 197, 118, 186, 60, 80, 35, 157, 61, 
  32, 106, 17, 63, 4, 141, 225, 62, 99, 81, 3, 190, 
  91, 127, 10, 62, 107, 53, 115, 57, 85, 205, 205, 62, 
  132, 22, 242, 62, 53, 241, 26, 191, 207, 243, 201, 61, 
  216, 35, 250, 58, 122, 239, 4, 62, 226, 14, 231, 62, 
  152, 123, 193, 190, 171, 213, 151, 62, 48, 147, 115, 189, 
  46, 94, 36, 63, 142, 29, 227, 62, 213, 98, 41, 63, 
  181, 163, 113, 62, 235, 34, 130, 62, 71, 61, 199, 61, 
  172, 177, 32, 62, 20, 181, 84, 63, 167, 111, 193, 62, 
  229, 178, 96, 62, 220, 66, 40, 63, 97, 187, 191, 62, 
  86, 156, 88, 61, 120, 110, 227, 62, 170, 85, 157, 62, 
  128, 248, 16, 62, 32, 76, 239, 62, 230, 65, 193, 62, 
  23, 50, 69, 61, 218, 39, 52, 61, 65, 23, 219, 62, 
  29, 190, 158, 61, 148, 9, 91, 191, 104, 221, 136, 62, 
  164, 49, 247, 188, 97, 13, 220, 190, 51, 241, 169, 62, 
  135, 90, 176, 62, 82, 246, 86, 189, 180, 138, 214, 188, 
  110, 56, 125, 62, 12, 58, 224, 62, 141, 6, 81, 62, 
  200, 72, 14, 62, 42, 231, 149, 62, 56, 218, 254, 62, 
  185, 35, 211, 62, 145, 58, 157, 62, 8, 194, 180, 190, 
  239, 179, 48, 190, 198, 253, 42, 190, 47, 189, 130, 189, 
  109, 34, 92, 191, 204, 234, 159, 62, 136, 167, 96, 62, 
  198, 14, 56, 62, 169, 195, 220, 62, 150, 2, 252, 62, 
  172, 174, 148, 188, 83, 209, 52, 189, 153, 220, 64, 190, 
  54, 139, 11, 63, 140, 66, 101, 62, 7, 135, 140, 190, 
  66, 46, 148, 190, 3, 118, 80, 62, 93, 195, 156, 62, 
  196, 34, 248, 190, 153, 49, 179, 61, 207, 189, 56, 189, 
  167, 150, 176, 62, 90, 218, 235, 61, 86, 157, 188, 190, 
  130, 23, 181, 190, 186, 194, 159, 190, 61, 18, 169, 61, 
  3, 23, 174, 189, 210, 185, 75, 191, 18, 202, 219, 189, 
  221, 221, 3, 190, 53, 126, 2, 63, 34, 217, 140, 61, 
  43, 43, 171, 190, 221, 111, 44, 189, 221, 163, 38, 189, 
  41, 205, 150, 62, 30, 139, 49, 62, 221, 160, 200, 62, 
  88, 98, 214, 189, 50, 149, 104, 61, 240, 215, 150, 62, 
  165, 21, 70, 62, 5, 143, 22, 191, 123, 21, 131, 190, 
  158, 246, 187, 190, 187, 73, 106, 62, 183, 158, 86, 190, 
  103, 220, 88, 191, 109, 40, 153, 62, 221, 170, 131, 62, 
  159, 206, 55, 62, 66, 169, 147, 62, 231, 124, 64, 189, 
  141, 131, 169, 62, 244, 116, 38, 62, 240, 193, 17, 63, 
  98, 192, 221, 62, 211, 231, 47, 191, 151, 114, 215, 61, 
  134, 254, 136, 61, 186, 100, 206, 62, 22, 78, 146, 61, 
  134, 217, 55, 191, 50, 251, 9, 62, 219, 15, 15, 188, 
  83, 68, 249, 62, 201, 137, 32, 62, 118, 107, 129, 63, 
  236, 26, 114, 188, 214, 153, 249, 188, 244, 175, 234, 62, 
  157, 67, 201, 62, 170, 169, 67, 63, 236, 178, 59, 62, 
  50, 42, 72, 190, 140, 53, 58, 189, 43, 150, 88, 61, 
  202, 93, 219, 190, 187, 255, 94, 61, 233, 199, 65, 62, 
  166, 152, 22, 62, 120, 55, 217, 62, 28, 71, 81, 63, 
  204, 167, 246, 61, 16, 45, 199, 60, 62, 6, 214, 62, 
  148, 141, 144, 62, 43, 230, 89, 191, 90, 162, 88, 59, 
  116, 141, 94, 189, 77, 17, 192, 62, 174, 144, 128, 62, 
  118, 32, 129, 63, 73, 112, 89, 62, 52, 10, 16, 190, 
  228, 156, 11, 63, 166, 198, 211, 62, 215, 66, 152, 62, 
  102, 86, 208, 62, 72, 75, 62, 62, 140, 36, 34, 63, 
  110, 121, 252, 62, 135, 82, 16, 190, 145, 221, 167, 187, 
  224, 184, 184, 188, 231, 150, 211, 62, 213, 129, 152, 62, 
  103, 152, 140, 190, 47, 158, 90, 62, 159, 70, 254, 189, 
  2, 212, 81, 189, 193, 227, 167, 62, 98, 49, 110, 189, 
  77, 191, 233, 60, 135, 130, 9, 188, 235, 119, 181, 62, 
  17, 176, 61, 189, 176, 221, 74, 60, 221, 188, 50, 190, 
  253, 230, 177, 190, 40, 228, 15, 62, 149, 209, 167, 189, 
  249, 140, 16, 191, 197, 173, 43, 62, 49, 41, 172, 62, 
  11, 236, 11, 62, 103, 68, 153, 62, 229, 218, 233, 62, 
  213, 154, 181, 61, 167, 0, 128, 186, 136, 204, 180, 62, 
  119, 117, 70, 62, 55, 55, 89, 191, 36, 17, 229, 62, 
  18, 177, 133, 62, 244, 37, 149, 189, 200, 60, 78, 62, 
  132, 175, 77, 63, 199, 32, 130, 62, 166, 17, 37, 62, 
  135, 80, 205, 62, 96, 16, 216, 62, 229, 217, 151, 190, 
  145, 189, 31, 62, 19, 30, 29, 60, 209, 67, 197, 62, 
  229, 36, 144, 62, 107, 238, 71, 191, 11, 73, 136, 62, 
  64, 67, 39, 190, 182, 114, 178, 62, 115, 18, 147, 62, 
  155, 32, 248, 190, 0, 219, 90, 62, 55, 94, 7, 61, 
  120, 151, 240, 62, 235, 17, 146, 62, 77, 189, 114, 63, 
  226, 45, 120, 62, 231, 20, 71, 62, 109, 248, 175, 62, 
  92, 136, 32, 62, 64, 139, 55, 63, 198, 3, 229, 62, 
  241, 253, 91, 62, 108, 106, 37, 190, 17, 209, 145, 62, 
  149, 61, 49, 63, 98, 241, 140, 62, 217, 28, 148, 62, 
  249, 160, 247, 61, 240, 0, 158, 62, 75, 160, 199, 62, 
  74, 222, 255, 255, 4, 0, 0, 0, 0, 1, 0, 0, 
  206, 5, 36, 62, 21, 52, 96, 62, 49, 200, 126, 62, 
  10, 77, 188, 62, 238, 158, 215, 62, 17, 176, 115, 62, 
  187, 226, 208, 62, 36, 209, 209, 62, 29, 184, 73, 63, 
  240, 163, 181, 62, 29, 146, 143, 62, 5, 214, 192, 62, 
  251, 177, 17, 63, 11, 155, 43, 61, 92, 84, 182, 62, 
  105, 221, 210, 62, 72, 114, 66, 62, 195, 193, 255, 62, 
  184, 234, 228, 62, 115, 148, 52, 62, 210, 251, 203, 62, 
  222, 165, 131, 62, 36, 222, 8, 189, 127, 108, 160, 62, 
  111, 112, 175, 62, 95, 206, 28, 62, 72, 146, 240, 62, 
  120, 202, 180, 62, 218, 145, 184, 62, 217, 90, 189, 62, 
  142, 48, 205, 62, 190, 35, 150, 62, 113, 181, 189, 62, 
  94, 205, 230, 62, 172, 244, 20, 62, 192, 156, 184, 62, 
  115, 139, 192, 62, 182, 62, 149, 62, 214, 179, 222, 61, 
  94, 148, 160, 62, 20, 24, 21, 62, 84, 152, 172, 62, 
  34, 131, 137, 61, 240, 40, 108, 62, 64, 196, 234, 62, 
  8, 10, 238, 61, 52, 108, 121, 61, 174, 146, 53, 62, 
  164, 220, 156, 62, 144, 172, 152, 62, 13, 230, 178, 62, 
  105, 58, 13, 63, 212, 33, 30, 63, 103, 21, 230, 58, 
  147, 84, 133, 62, 169, 131, 98, 61, 223, 64, 149, 61, 
  116, 143, 70, 62, 31, 95, 99, 62, 78, 172, 152, 62, 
  37, 201, 38, 62, 193, 212, 7, 61, 60, 103, 89, 62, 
  174, 198, 196, 62, 86, 223, 255, 255, 4, 0, 0, 0, 
  128, 0, 0, 0, 5, 38, 234, 62, 154, 60, 130, 62, 
  144, 25, 74, 62, 190, 10, 80, 62, 104, 235, 90, 189, 
  163, 223, 114, 62, 69, 233, 153, 188, 248, 158, 77, 62, 
  34, 94, 213, 189, 55, 232, 19, 63, 87, 212, 73, 62, 
  109, 136, 71, 62, 13, 169, 74, 62, 136, 230, 101, 62, 
  108, 50, 60, 63, 10, 152, 129, 62, 241, 41, 176, 188, 
  241, 148, 134, 189, 23, 146, 111, 58, 159, 195, 220, 189, 
  81, 159, 108, 62, 143, 80, 19, 188, 113, 159, 107, 62, 
  44, 242, 128, 60, 228, 156, 71, 62, 135, 27, 92, 62, 
  179, 103, 40, 62, 148, 48, 29, 62, 46, 143, 92, 188, 
  22, 27, 127, 62, 207, 17, 61, 62, 142, 158, 134, 62, 
  226, 223, 255, 255, 4, 0, 0, 0, 4, 0, 0, 0, 
  56, 20, 42, 62, 242, 223, 255, 255, 4, 0, 0, 0, 
  0, 32, 0, 0, 244, 99, 153, 190, 187, 196, 41, 191, 
  215, 137, 12, 62, 21, 176, 175, 62, 108, 240, 251, 189, 
  178, 37, 21, 190, 225, 81, 3, 63, 8, 75, 93, 63, 
  103, 97, 35, 190, 86, 5, 16, 188, 155, 52, 236, 190, 
  175, 96, 225, 61, 108, 131, 33, 191, 71, 60, 156, 62, 
  106, 95, 52, 62, 210, 70, 146, 190, 145, 146, 192, 190, 
  214, 106, 132, 190, 20, 210, 138, 60, 251, 162, 222, 190, 
  109, 239, 51, 62, 19, 196, 166, 187, 88, 183, 90, 62, 
  209, 233, 228, 189, 196, 10, 235, 62, 235, 207, 197, 191, 
  158, 216, 27, 63, 104, 226, 112, 188, 137, 196, 72, 62, 
  204, 229, 59, 63, 253, 215, 202, 62, 193, 80, 6, 63, 
  236, 136, 70, 63, 78, 71, 7, 190, 99, 240, 38, 62, 
  146, 48, 52, 62, 109, 229, 12, 190, 219, 249, 31, 189, 
  129, 37, 172, 62, 39, 169, 18, 63, 225, 7, 39, 191, 
  139, 146, 44, 191, 95, 114, 48, 190, 20, 104, 51, 189, 
  228, 137, 37, 63, 246, 216, 185, 62, 69, 46, 194, 191, 
  84, 169, 245, 190, 253, 159, 9, 190, 84, 213, 130, 189, 
  241, 7, 24, 189, 67, 180, 27, 63, 129, 128, 207, 190, 
  255, 10, 0, 190, 85, 6, 221, 61, 215, 170, 204, 191, 
  70, 254, 86, 62, 201, 244, 122, 62, 210, 50, 25, 191, 
  133, 207, 28, 62, 55, 52, 222, 189, 89, 196, 231, 61, 
  117, 48, 232, 62, 95, 135, 199, 62, 52, 123, 177, 190, 
  108, 108, 235, 62, 112, 164, 73, 190, 148, 66, 40, 63, 
  159, 166, 212, 189, 88, 233, 122, 191, 56, 61, 41, 190, 
  172, 241, 27, 63, 213, 55, 22, 191, 243, 228, 73, 190, 
  153, 17, 139, 190, 8, 160, 229, 62, 148, 12, 199, 191, 
  199, 35, 44, 62, 99, 38, 192, 62, 105, 108, 163, 190, 
  164, 104, 89, 63, 118, 166, 28, 62, 170, 245, 63, 190, 
  147, 177, 102, 62, 19, 250, 39, 63, 45, 146, 71, 190, 
  63, 39, 229, 190, 21, 51, 119, 62, 3, 187, 236, 62, 
  246, 122, 201, 190, 224, 104, 97, 63, 142, 195, 169, 60, 
  1, 63, 186, 61, 45, 97, 99, 190, 38, 24, 200, 188, 
  201, 227, 125, 62, 188, 148, 179, 62, 103, 149, 209, 189, 
  91, 131, 222, 189, 167, 136, 64, 190, 101, 240, 22, 191, 
  107, 245, 41, 61, 197, 193, 1, 191, 235, 128, 180, 62, 
  170, 170, 171, 62, 202, 158, 132, 190, 167, 27, 66, 191, 
  17, 71, 45, 191, 169, 225, 121, 63, 181, 53, 78, 190, 
  134, 142, 21, 190, 64, 215, 47, 191, 44, 72, 186, 189, 
  213, 143, 202, 189, 93, 154, 235, 60, 187, 219, 39, 63, 
  102, 189, 23, 191, 130, 234, 50, 191, 40, 188, 40, 61, 
  67, 214, 171, 189, 132, 187, 196, 61, 120, 54, 217, 62, 
  208, 202, 153, 62, 254, 13, 203, 62, 154, 94, 161, 190, 
  216, 85, 130, 190, 19, 250, 39, 63, 31, 75, 206, 62, 
  104, 156, 150, 62, 87, 21, 215, 62, 57, 142, 237, 62, 
  93, 163, 90, 61, 233, 108, 175, 62, 126, 217, 21, 63, 
  68, 246, 230, 62, 49, 9, 167, 62, 164, 36, 217, 62, 
  159, 35, 177, 62, 193, 38, 7, 63, 79, 61, 235, 62, 
  153, 7, 116, 62, 176, 127, 250, 62, 224, 169, 166, 62, 
  207, 253, 186, 62, 26, 14, 230, 61, 164, 161, 0, 63, 
  244, 58, 212, 62, 224, 19, 217, 62, 126, 199, 189, 61, 
  105, 243, 231, 62, 57, 133, 24, 63, 76, 181, 80, 61, 
  139, 132, 0, 63, 93, 239, 3, 62, 71, 80, 234, 61, 
  142, 21, 123, 61, 76, 79, 187, 62, 121, 184, 142, 62, 
  135, 63, 110, 62, 162, 12, 11, 62, 78, 60, 158, 61, 
  87, 129, 68, 62, 130, 43, 138, 62, 108, 97, 231, 62, 
  215, 207, 214, 62, 74, 169, 237, 62, 150, 164, 215, 62, 
  206, 114, 253, 62, 22, 194, 171, 61, 228, 166, 155, 62, 
  214, 193, 97, 62, 181, 38, 133, 62, 118, 78, 223, 60, 
  83, 245, 248, 62, 192, 153, 77, 62, 158, 152, 7, 63, 
  222, 104, 116, 62, 101, 18, 159, 62, 226, 39, 212, 62, 
  106, 6, 4, 63, 216, 54, 60, 62, 209, 254, 159, 62, 
  249, 249, 227, 62, 80, 178, 13, 63, 51, 211, 165, 62, 
  96, 116, 103, 62, 186, 85, 7, 63, 152, 255, 216, 62, 
  3, 62, 128, 62, 196, 248, 19, 63, 36, 226, 87, 62, 
  18, 207, 189, 62, 121, 129, 58, 62, 169, 88, 170, 61, 
  243, 243, 242, 62, 158, 222, 220, 62, 0, 13, 6, 63, 
  1, 14, 58, 62, 123, 2, 156, 62, 138, 20, 147, 62, 
  203, 240, 5, 62, 180, 12, 47, 61, 252, 19, 42, 62, 
  0, 116, 24, 62, 135, 180, 38, 62, 34, 31, 204, 62, 
  109, 74, 62, 62, 105, 62, 213, 62, 188, 151, 16, 63, 
  187, 97, 6, 63, 137, 184, 170, 62, 244, 54, 57, 62, 
  92, 130, 180, 62, 72, 73, 241, 62, 129, 222, 23, 63, 
  44, 108, 113, 62, 229, 197, 229, 62, 181, 37, 9, 63, 
  157, 162, 129, 62, 152, 73, 191, 61, 9, 240, 229, 62, 
  158, 206, 249, 62, 222, 232, 63, 62, 202, 105, 135, 61, 
  67, 108, 50, 62, 208, 96, 181, 62, 90, 116, 222, 62, 
  111, 252, 240, 61, 70, 46, 15, 62, 212, 75, 173, 62, 
  239, 136, 75, 63, 196, 206, 218, 62, 13, 253, 214, 62, 
  86, 27, 18, 62, 164, 229, 66, 62, 217, 210, 130, 61, 
  199, 206, 208, 62, 167, 148, 157, 62, 183, 162, 210, 62, 
  187, 224, 102, 62, 74, 212, 209, 62, 132, 136, 193, 61, 
  45, 164, 158, 62, 230, 39, 194, 62, 174, 179, 226, 61, 
  52, 139, 77, 62, 27, 94, 241, 62, 246, 75, 71, 62, 
  240, 97, 21, 63, 133, 8, 189, 62, 177, 119, 136, 62, 
  187, 80, 163, 62, 108, 168, 10, 62, 59, 217, 229, 62, 
  185, 232, 142, 62, 164, 13, 192, 62, 35, 116, 5, 62, 
  149, 67, 252, 61, 201, 184, 57, 190, 123, 81, 41, 190, 
  13, 212, 127, 189, 230, 241, 187, 188, 158, 37, 59, 62, 
  5, 13, 169, 60, 181, 167, 112, 190, 195, 124, 71, 190, 
  118, 140, 142, 187, 68, 201, 166, 189, 168, 37, 217, 61, 
  103, 89, 153, 61, 206, 87, 73, 60, 12, 134, 81, 190, 
  144, 183, 234, 61, 68, 138, 148, 61, 241, 3, 168, 61, 
  205, 203, 47, 62, 2, 47, 71, 190, 63, 224, 64, 62, 
  184, 135, 39, 188, 21, 214, 56, 190, 49, 27, 3, 190, 
  140, 127, 67, 62, 192, 250, 18, 190, 73, 29, 137, 190, 
  246, 45, 57, 62, 186, 165, 165, 189, 126, 184, 123, 61, 
  9, 185, 50, 62, 43, 177, 75, 62, 45, 123, 188, 61, 
  183, 82, 85, 190, 147, 212, 246, 189, 4, 48, 163, 189, 
  58, 162, 13, 190, 255, 112, 182, 61, 189, 9, 48, 61, 
  246, 116, 38, 190, 75, 132, 238, 61, 144, 20, 252, 189, 
  169, 57, 18, 62, 29, 3, 213, 60, 167, 216, 143, 188, 
  183, 176, 123, 189, 89, 197, 2, 62, 38, 5, 123, 190, 
  17, 46, 0, 62, 251, 70, 35, 62, 130, 75, 176, 189, 
  202, 43, 66, 61, 3, 38, 69, 61, 73, 37, 32, 62, 
  114, 31, 143, 190, 239, 24, 138, 190, 78, 43, 147, 190, 
  13, 193, 78, 190, 50, 114, 114, 188, 82, 62, 57, 190, 
  0, 206, 141, 190, 137, 241, 253, 60, 122, 73, 76, 190, 
  68, 133, 169, 62, 69, 16, 197, 62, 125, 235, 97, 62, 
  12, 189, 227, 62, 32, 202, 210, 62, 248, 136, 10, 63, 
  57, 249, 193, 62, 31, 82, 82, 62, 53, 204, 128, 62, 
  43, 250, 143, 62, 107, 156, 38, 62, 121, 51, 9, 63, 
  198, 181, 233, 62, 105, 102, 106, 62, 59, 110, 32, 62, 
  47, 126, 19, 63, 252, 39, 111, 62, 0, 205, 234, 61, 
  48, 250, 186, 62, 121, 75, 10, 62, 149, 233, 171, 61, 
  148, 120, 130, 62, 60, 43, 107, 62, 228, 28, 220, 62, 
  55, 116, 139, 62, 242, 232, 69, 62, 38, 144, 222, 61, 
  65, 178, 253, 62, 20, 105, 1, 63, 1, 161, 153, 62, 
  32, 205, 148, 62, 75, 82, 199, 62, 194, 246, 212, 62, 
  213, 114, 5, 63, 10, 183, 96, 62, 233, 186, 142, 61, 
  156, 72, 146, 62, 74, 229, 251, 62, 86, 167, 67, 63, 
  154, 111, 205, 62, 126, 23, 193, 62, 129, 108, 35, 63, 
  31, 198, 162, 62, 56, 81, 3, 63, 134, 161, 133, 62, 
  181, 170, 147, 62, 155, 10, 137, 62, 87, 247, 237, 62, 
  8, 213, 247, 62, 94, 56, 167, 62, 38, 52, 132, 62, 
  115, 161, 190, 61, 219, 87, 11, 63, 143, 181, 224, 62, 
  71, 30, 156, 62, 27, 118, 61, 62, 186, 169, 135, 62, 
  148, 159, 39, 62, 63, 111, 73, 62, 177, 38, 224, 62, 
  28, 235, 22, 63, 112, 228, 213, 62, 48, 91, 159, 62, 
  213, 10, 241, 62, 204, 64, 128, 62, 241, 246, 45, 61, 
  56, 182, 173, 189, 199, 248, 199, 189, 134, 15, 7, 191, 
  201, 176, 28, 190, 57, 153, 131, 61, 29, 24, 198, 62, 
  32, 142, 29, 63, 66, 162, 146, 189, 53, 231, 170, 189, 
  132, 128, 244, 188, 13, 240, 228, 62, 50, 12, 65, 62, 
  224, 141, 194, 60, 74, 182, 170, 188, 161, 119, 12, 190, 
  213, 23, 191, 190, 65, 151, 47, 190, 99, 192, 17, 60, 
  62, 150, 57, 61, 232, 45, 30, 190, 227, 67, 31, 62, 
  114, 53, 0, 190, 61, 79, 6, 191, 172, 175, 217, 60, 
  238, 68, 231, 190, 56, 175, 182, 61, 233, 159, 189, 61, 
  210, 238, 137, 62, 239, 220, 201, 189, 75, 132, 7, 190, 
  230, 139, 2, 62, 184, 245, 179, 190, 234, 142, 171, 187, 
  75, 20, 120, 61, 5, 207, 3, 59, 91, 8, 136, 59, 
  207, 104, 234, 61, 44, 92, 136, 62, 72, 81, 163, 61, 
  53, 255, 139, 190, 205, 124, 185, 189, 73, 127, 218, 61, 
  215, 208, 63, 62, 66, 199, 74, 189, 53, 27, 4, 190, 
  96, 17, 208, 61, 95, 112, 104, 190, 76, 97, 5, 61, 
  172, 116, 180, 61, 117, 178, 126, 61, 235, 176, 5, 62, 
  229, 253, 59, 189, 9, 10, 3, 61, 0, 171, 35, 62, 
  177, 188, 219, 190, 161, 36, 54, 189, 119, 57, 37, 189, 
  206, 45, 150, 60, 23, 57, 204, 190, 148, 34, 150, 62, 
  138, 46, 138, 190, 214, 176, 28, 61, 167, 182, 30, 63, 
  203, 76, 241, 62, 193, 241, 92, 61, 119, 123, 2, 63, 
  83, 17, 9, 62, 146, 169, 2, 63, 238, 124, 2, 63, 
  184, 231, 53, 62, 172, 115, 109, 62, 243, 105, 212, 62, 
  98, 154, 232, 61, 164, 144, 178, 62, 174, 151, 190, 62, 
  74, 191, 237, 62, 138, 14, 138, 62, 97, 51, 251, 62, 
  237, 31, 4, 63, 74, 254, 210, 62, 132, 136, 125, 62, 
  5, 218, 5, 63, 238, 207, 172, 62, 223, 112, 101, 62, 
  3, 81, 4, 63, 92, 103, 32, 62, 1, 188, 217, 62, 
  22, 244, 107, 62, 162, 78, 202, 62, 163, 254, 226, 62, 
  55, 243, 228, 60, 97, 80, 28, 63, 222, 166, 20, 62, 
  218, 13, 220, 62, 34, 225, 208, 62, 52, 29, 2, 63, 
  19, 24, 176, 62, 215, 100, 218, 62, 95, 16, 150, 62, 
  157, 235, 31, 62, 178, 229, 16, 63, 203, 121, 7, 63, 
  92, 180, 135, 62, 115, 216, 254, 61, 213, 27, 53, 62, 
  154, 228, 46, 62, 209, 4, 130, 62, 4, 180, 196, 62, 
  173, 40, 78, 62, 157, 93, 9, 63, 88, 96, 210, 62, 
  133, 212, 163, 62, 21, 214, 251, 62, 47, 112, 182, 62, 
  242, 144, 56, 62, 169, 89, 217, 61, 206, 22, 2, 63, 
  220, 247, 128, 62, 253, 176, 93, 62, 111, 61, 237, 62, 
  1, 141, 131, 62, 28, 113, 239, 61, 37, 53, 62, 62, 
  56, 114, 240, 61, 118, 234, 117, 62, 57, 96, 135, 62, 
  31, 2, 130, 190, 207, 198, 6, 63, 60, 200, 155, 61, 
  217, 68, 22, 62, 114, 189, 210, 188, 25, 214, 104, 191, 
  192, 188, 22, 191, 29, 2, 46, 63, 203, 41, 133, 191, 
  69, 219, 6, 62, 9, 116, 30, 61, 38, 159, 10, 62, 
  191, 116, 109, 191, 163, 120, 168, 190, 255, 66, 131, 62, 
  130, 242, 182, 60, 243, 115, 243, 62, 206, 88, 18, 190, 
  204, 131, 101, 190, 218, 109, 204, 62, 169, 132, 217, 62, 
  58, 4, 115, 61, 215, 255, 83, 190, 188, 166, 37, 189, 
  116, 203, 181, 62, 197, 122, 20, 62, 57, 158, 59, 63, 
  186, 175, 84, 62, 246, 225, 18, 62, 56, 119, 82, 191, 
  143, 143, 180, 61, 52, 130, 24, 62, 11, 20, 108, 62, 
  28, 36, 163, 61, 242, 253, 204, 190, 47, 245, 39, 190, 
  141, 17, 179, 190, 105, 136, 164, 60, 102, 9, 80, 191, 
  81, 132, 194, 62, 173, 214, 95, 61, 183, 12, 114, 190, 
  54, 32, 105, 191, 155, 209, 25, 191, 235, 143, 23, 63, 
  37, 228, 75, 190, 107, 217, 161, 60, 202, 194, 118, 191, 
  64, 135, 25, 190, 137, 30, 240, 61, 9, 80, 132, 62, 
  131, 15, 5, 63, 190, 116, 80, 191, 154, 34, 140, 190, 
  156, 224, 192, 60, 21, 39, 74, 189, 149, 34, 136, 62, 
  152, 58, 33, 61, 21, 115, 218, 62, 138, 132, 177, 62, 
  66, 33, 192, 190, 232, 125, 38, 190, 3, 184, 166, 62, 
  27, 151, 121, 62, 158, 237, 235, 190, 1, 53, 0, 191, 
  125, 3, 141, 61, 55, 77, 148, 62, 133, 128, 122, 190, 
  104, 33, 18, 189, 61, 143, 66, 63, 131, 37, 14, 63, 
  12, 183, 93, 63, 86, 223, 4, 190, 19, 37, 190, 190, 
  38, 125, 192, 61, 122, 0, 103, 191, 249, 20, 9, 63, 
  40, 89, 54, 62, 215, 104, 94, 62, 55, 171, 126, 190, 
  177, 77, 213, 60, 36, 181, 249, 189, 4, 175, 53, 190, 
  85, 28, 121, 62, 184, 46, 186, 189, 114, 129, 218, 62, 
  254, 175, 113, 62, 121, 45, 252, 62, 177, 0, 74, 191, 
  216, 39, 49, 63, 196, 40, 141, 61, 150, 111, 55, 62, 
  149, 232, 27, 63, 139, 140, 222, 62, 111, 47, 254, 62, 
  95, 193, 190, 62, 71, 93, 7, 191, 228, 160, 255, 62, 
  155, 172, 101, 62, 76, 97, 195, 190, 183, 187, 152, 190, 
  103, 7, 31, 62, 50, 78, 207, 62, 208, 15, 58, 191, 
  67, 231, 139, 191, 190, 212, 1, 191, 54, 63, 62, 190, 
  223, 156, 45, 63, 160, 213, 8, 62, 250, 239, 153, 191, 
  82, 78, 49, 191, 156, 23, 75, 62, 21, 177, 255, 189, 
  204, 78, 89, 190, 206, 31, 138, 62, 80, 106, 30, 191, 
  23, 243, 133, 61, 21, 233, 177, 62, 214, 24, 109, 191, 
  84, 222, 138, 62, 233, 21, 200, 62, 85, 94, 173, 190, 
  93, 129, 106, 62, 167, 101, 38, 190, 150, 113, 86, 189, 
  3, 16, 205, 62, 233, 129, 121, 62, 206, 182, 53, 62, 
  254, 91, 211, 62, 229, 153, 242, 62, 146, 244, 145, 61, 
  204, 116, 238, 62, 15, 230, 243, 62, 124, 161, 202, 62, 
  8, 27, 213, 62, 123, 10, 244, 62, 244, 90, 124, 62, 
  2, 8, 163, 62, 3, 68, 10, 62, 116, 247, 5, 62, 
  189, 59, 120, 62, 222, 244, 146, 61, 155, 9, 236, 62, 
  48, 35, 142, 62, 212, 20, 118, 62, 191, 117, 230, 62, 
  43, 137, 247, 62, 76, 237, 90, 62, 156, 137, 135, 62, 
  121, 202, 187, 62, 176, 171, 193, 62, 154, 25, 108, 62, 
  209, 225, 3, 62, 1, 191, 156, 60, 101, 138, 170, 62, 
  143, 158, 250, 62, 98, 13, 91, 62, 69, 119, 224, 62, 
  26, 183, 89, 62, 190, 90, 219, 62, 41, 91, 210, 61, 
  48, 127, 140, 62, 24, 244, 221, 62, 115, 84, 2, 63, 
  71, 132, 114, 62, 247, 28, 255, 62, 96, 214, 68, 62, 
  115, 166, 61, 62, 243, 226, 158, 62, 249, 46, 192, 62, 
  241, 221, 194, 62, 0, 137, 16, 62, 226, 12, 111, 62, 
  52, 29, 20, 62, 165, 173, 250, 62, 93, 74, 230, 62, 
  251, 155, 209, 62, 204, 37, 12, 62, 111, 98, 132, 62, 
  240, 86, 189, 62, 51, 159, 14, 62, 204, 51, 153, 62, 
  177, 120, 4, 62, 183, 74, 149, 62, 105, 140, 85, 61, 
  38, 117, 218, 61, 254, 243, 52, 62, 186, 18, 199, 62, 
  59, 85, 13, 63, 71, 88, 237, 61, 17, 13, 130, 62, 
  78, 2, 182, 62, 217, 179, 253, 62, 247, 154, 221, 62, 
  87, 133, 89, 62, 85, 246, 227, 62, 167, 163, 59, 62, 
  123, 109, 106, 62, 18, 121, 1, 62, 99, 166, 10, 63, 
  249, 221, 67, 62, 58, 23, 232, 62, 65, 47, 203, 62, 
  177, 80, 238, 62, 4, 125, 146, 62, 142, 212, 4, 62, 
  173, 118, 75, 62, 66, 100, 166, 62, 186, 44, 246, 62, 
  119, 168, 222, 61, 24, 72, 210, 62, 227, 235, 234, 61, 
  149, 181, 172, 62, 193, 165, 150, 62, 253, 72, 175, 62, 
  83, 80, 204, 62, 203, 170, 148, 62, 192, 179, 163, 61, 
  41, 168, 224, 61, 17, 185, 90, 62, 170, 226, 107, 62, 
  142, 168, 201, 62, 135, 203, 202, 61, 202, 213, 61, 62, 
  110, 22, 146, 62, 239, 231, 225, 62, 178, 34, 205, 60, 
  157, 246, 69, 62, 112, 214, 150, 62, 189, 173, 220, 62, 
  29, 18, 8, 63, 215, 111, 112, 62, 119, 128, 16, 62, 
  58, 177, 230, 62, 205, 200, 10, 63, 146, 109, 33, 61, 
  170, 81, 243, 62, 248, 92, 1, 63, 249, 41, 22, 62, 
  127, 227, 230, 62, 35, 52, 252, 62, 37, 217, 217, 62, 
  24, 159, 191, 62, 83, 248, 143, 62, 182, 122, 149, 62, 
  94, 30, 189, 62, 136, 86, 248, 61, 4, 134, 30, 62, 
  110, 195, 246, 62, 13, 218, 229, 62, 115, 84, 216, 62, 
  15, 65, 12, 63, 136, 100, 140, 62, 195, 156, 8, 63, 
  89, 225, 128, 62, 23, 201, 1, 63, 111, 185, 9, 63, 
  167, 119, 222, 61, 86, 150, 241, 62, 88, 252, 11, 63, 
  183, 153, 246, 62, 24, 58, 60, 62, 243, 57, 76, 62, 
  30, 35, 187, 62, 179, 29, 170, 62, 49, 52, 47, 62, 
  39, 130, 240, 61, 133, 202, 133, 61, 40, 62, 7, 63, 
  155, 243, 71, 62, 144, 56, 128, 62, 36, 170, 183, 61, 
  175, 208, 91, 62, 8, 64, 142, 62, 230, 119, 243, 62, 
  246, 238, 203, 62, 239, 81, 214, 62, 239, 200, 161, 62, 
  55, 66, 75, 62, 215, 252, 212, 62, 185, 22, 233, 62, 
  238, 153, 15, 188, 244, 130, 240, 62, 200, 34, 9, 62, 
  21, 46, 11, 63, 8, 191, 209, 62, 55, 59, 105, 60, 
  243, 147, 152, 62, 42, 94, 170, 61, 177, 141, 28, 63, 
  159, 68, 237, 62, 154, 89, 122, 62, 64, 155, 136, 62, 
  144, 169, 60, 63, 155, 32, 248, 62, 189, 101, 175, 62, 
  83, 231, 223, 62, 1, 230, 252, 62, 74, 249, 82, 62, 
  191, 49, 168, 62, 183, 113, 234, 62, 35, 178, 16, 62, 
  234, 49, 17, 62, 245, 113, 128, 62, 135, 63, 183, 62, 
  160, 222, 0, 62, 1, 9, 143, 62, 105, 129, 206, 62, 
  86, 86, 252, 62, 218, 73, 173, 62, 108, 229, 4, 62, 
  14, 190, 15, 63, 103, 50, 188, 62, 108, 142, 148, 62, 
  81, 59, 220, 61, 158, 56, 152, 62, 65, 231, 160, 62, 
  94, 139, 185, 62, 220, 122, 1, 63, 118, 41, 31, 63, 
  101, 128, 76, 62, 173, 172, 64, 62, 190, 100, 123, 62, 
  71, 121, 121, 62, 82, 37, 24, 63, 42, 224, 59, 62, 
  73, 107, 122, 62, 204, 224, 82, 62, 20, 6, 130, 61, 
  98, 177, 230, 62, 47, 167, 87, 62, 89, 111, 221, 61, 
  25, 53, 247, 61, 207, 194, 159, 61, 132, 3, 12, 63, 
  100, 239, 141, 62, 230, 247, 191, 62, 122, 250, 144, 62, 
  237, 190, 251, 62, 131, 196, 227, 62, 10, 196, 216, 62, 
  76, 204, 166, 62, 181, 165, 44, 62, 61, 91, 103, 62, 
  234, 97, 207, 62, 222, 214, 133, 61, 74, 111, 216, 61, 
  236, 159, 131, 62, 170, 250, 25, 63, 119, 147, 106, 62, 
  19, 151, 122, 61, 167, 123, 25, 62, 237, 40, 113, 62, 
  83, 130, 110, 62, 50, 222, 198, 62, 203, 244, 189, 62, 
  18, 183, 177, 62, 182, 111, 229, 62, 40, 115, 152, 62, 
  136, 152, 78, 62, 247, 43, 241, 62, 14, 62, 133, 62, 
  216, 210, 16, 63, 101, 8, 34, 62, 74, 64, 171, 62, 
  5, 234, 25, 63, 255, 173, 160, 62, 34, 81, 103, 61, 
  198, 146, 153, 62, 40, 90, 223, 62, 186, 129, 117, 62, 
  49, 125, 24, 62, 12, 116, 141, 62, 151, 213, 165, 62, 
  186, 92, 244, 62, 77, 242, 106, 62, 101, 211, 230, 61, 
  174, 90, 211, 62, 164, 231, 167, 62, 247, 37, 160, 62, 
  251, 252, 154, 62, 226, 236, 163, 62, 97, 48, 20, 63, 
  18, 128, 16, 191, 107, 242, 45, 190, 164, 80, 219, 60, 
  181, 170, 224, 62, 131, 76, 4, 63, 173, 181, 223, 61, 
  145, 143, 94, 63, 87, 137, 4, 63, 59, 84, 133, 63, 
  157, 136, 41, 189, 148, 213, 212, 60, 173, 168, 145, 62, 
  250, 31, 51, 191, 119, 96, 84, 62, 52, 234, 132, 62, 
  159, 113, 188, 61, 26, 224, 151, 190, 206, 78, 20, 63, 
  55, 99, 53, 62, 134, 65, 68, 61, 92, 46, 11, 63, 
  85, 98, 27, 63, 83, 217, 170, 190, 64, 85, 169, 62, 
  133, 143, 93, 62, 163, 38, 100, 191, 117, 85, 55, 63, 
  177, 10, 35, 62, 26, 78, 129, 60, 18, 132, 137, 63, 
  128, 35, 242, 61, 10, 108, 40, 63, 233, 203, 80, 62, 
  9, 154, 88, 191, 147, 169, 101, 62, 247, 193, 220, 189, 
  17, 5, 103, 189, 37, 6, 172, 190, 10, 78, 249, 62, 
  93, 118, 153, 61, 149, 94, 1, 191, 4, 39, 95, 191, 
  51, 77, 76, 191, 4, 229, 38, 191, 176, 11, 0, 63, 
  148, 122, 218, 188, 223, 164, 136, 191, 239, 111, 25, 191, 
  221, 85, 131, 62, 136, 173, 143, 62, 172, 105, 30, 191, 
  139, 238, 236, 62, 134, 41, 149, 191, 141, 51, 65, 190, 
  208, 42, 56, 62, 132, 82, 80, 191, 61, 202, 111, 60, 
  235, 223, 224, 190, 244, 170, 111, 61, 186, 127, 28, 62, 
  110, 62, 215, 190, 150, 127, 242, 189, 211, 65, 196, 61, 
  94, 20, 2, 63, 255, 88, 195, 62, 230, 102, 190, 62, 
  195, 6, 159, 61, 233, 97, 231, 62, 199, 193, 196, 62, 
  217, 130, 33, 62, 100, 2, 21, 63, 111, 110, 231, 62, 
  142, 216, 28, 63, 39, 116, 5, 63, 132, 129, 151, 62, 
  34, 146, 129, 62, 255, 250, 194, 62, 117, 142, 165, 62, 
  102, 108, 212, 61, 255, 40, 190, 62, 237, 154, 79, 62, 
  175, 136, 181, 62, 206, 16, 167, 62, 212, 216, 234, 62, 
  40, 32, 142, 62, 86, 204, 205, 62, 206, 107, 5, 63, 
  29, 157, 10, 63, 177, 188, 226, 62, 43, 165, 101, 62, 
  31, 252, 230, 62, 132, 130, 9, 63, 29, 153, 255, 61, 
  192, 179, 103, 62, 161, 186, 248, 62, 55, 202, 211, 62, 
  193, 109, 57, 62, 253, 217, 233, 62, 231, 10, 149, 62, 
  79, 23, 240, 61, 122, 239, 208, 62, 168, 66, 2, 63, 
  180, 237, 37, 63, 244, 51, 142, 61, 115, 50, 140, 62, 
  154, 206, 238, 62, 69, 206, 206, 62, 175, 242, 237, 61, 
  171, 120, 115, 62, 103, 204, 243, 62, 171, 64, 65, 62, 
  132, 22, 11, 63, 144, 53, 249, 62, 233, 187, 145, 62, 
  208, 71, 221, 62, 249, 23, 251, 62, 68, 242, 158, 62, 
  208, 44, 69, 63, 23, 37, 20, 63, 26, 67, 23, 63, 
  2, 41, 26, 63, 42, 23, 87, 62, 56, 59, 166, 62, 
  209, 253, 180, 61, 125, 104, 11, 63, 61, 113, 103, 62, 
  173, 51, 77, 62, 17, 192, 238, 62, 253, 22, 108, 190, 
  12, 55, 194, 190, 77, 252, 183, 188, 91, 244, 162, 62, 
  108, 110, 69, 190, 51, 248, 20, 189, 69, 189, 125, 190, 
  25, 227, 127, 62, 134, 133, 214, 190, 0, 86, 106, 190, 
  3, 217, 103, 59, 161, 214, 144, 190, 40, 59, 5, 191, 
  167, 186, 92, 62, 76, 101, 75, 62, 41, 75, 163, 60, 
  247, 29, 44, 62, 174, 239, 196, 61, 102, 203, 35, 190, 
  158, 43, 29, 62, 73, 184, 19, 61, 28, 95, 233, 189, 
  147, 241, 102, 62, 177, 252, 138, 190, 114, 87, 154, 61, 
  134, 15, 8, 191, 199, 143, 58, 63, 251, 199, 50, 190, 
  222, 1, 183, 61, 226, 131, 199, 189, 158, 196, 77, 62, 
  224, 117, 24, 62, 99, 140, 236, 189, 221, 190, 95, 189, 
  162, 205, 13, 62, 145, 2, 34, 62, 45, 146, 76, 190, 
  204, 255, 90, 190, 1, 51, 136, 190, 149, 223, 233, 62, 
  54, 209, 104, 61, 21, 194, 126, 190, 173, 176, 127, 190, 
  1, 68, 110, 61, 88, 64, 182, 189, 32, 218, 71, 62, 
  155, 6, 133, 189, 194, 85, 125, 61, 33, 236, 20, 61, 
  119, 16, 155, 190, 52, 191, 90, 190, 152, 79, 106, 62, 
  91, 208, 16, 191, 244, 160, 155, 190, 139, 64, 248, 61, 
  255, 248, 155, 60, 75, 68, 154, 62, 179, 61, 138, 61, 
  28, 114, 21, 190, 123, 125, 101, 190, 202, 120, 176, 190, 
  80, 97, 133, 188, 193, 234, 75, 62, 3, 78, 147, 62, 
  71, 47, 180, 190, 222, 58, 232, 61, 135, 107, 31, 61, 
  215, 241, 183, 62, 75, 6, 68, 189, 203, 91, 128, 191, 
  200, 215, 129, 191, 24, 226, 7, 63, 248, 114, 123, 191, 
  244, 58, 27, 61, 35, 201, 190, 190, 226, 177, 142, 62, 
  222, 178, 201, 190, 223, 36, 136, 190, 208, 250, 14, 62, 
  100, 53, 85, 189, 34, 46, 195, 62, 229, 123, 243, 189, 
  104, 90, 43, 189, 91, 128, 46, 62, 104, 230, 145, 189, 
  198, 228, 27, 62, 85, 140, 249, 190, 16, 108, 125, 190, 
  165, 160, 150, 62, 234, 92, 101, 188, 2, 56, 59, 63, 
  139, 93, 81, 61, 56, 45, 175, 189, 167, 187, 170, 191, 
  185, 243, 208, 61, 93, 65, 221, 189, 122, 92, 44, 62, 
  151, 191, 191, 61, 56, 143, 255, 190, 76, 40, 212, 61, 
  46, 137, 120, 190, 58, 10, 4, 62, 97, 114, 118, 191, 
  199, 192, 8, 63, 66, 163, 32, 62, 222, 195, 17, 190, 
  80, 194, 38, 190, 24, 10, 63, 190, 116, 156, 248, 61, 
  195, 6, 68, 60, 162, 20, 52, 62, 77, 198, 152, 190, 
  250, 144, 223, 61, 97, 204, 246, 189, 235, 155, 65, 62, 
  109, 55, 136, 62, 8, 147, 35, 191, 201, 132, 181, 190, 
  90, 255, 1, 189, 116, 36, 155, 62, 17, 166, 164, 62, 
  191, 225, 242, 189, 250, 206, 9, 189, 231, 134, 149, 62, 
  131, 33, 1, 62, 57, 217, 204, 190, 22, 155, 212, 188, 
  245, 215, 214, 61, 193, 197, 185, 62, 72, 29, 23, 62, 
  36, 167, 167, 190, 27, 66, 16, 62, 46, 107, 178, 190, 
  82, 118, 100, 190, 21, 122, 196, 61, 194, 173, 27, 61, 
  68, 7, 155, 62, 156, 131, 224, 60, 3, 191, 172, 189, 
  109, 186, 176, 190, 28, 88, 9, 63, 51, 106, 27, 190, 
  31, 155, 199, 189, 65, 241, 239, 190, 36, 50, 4, 190, 
  220, 193, 24, 191, 216, 118, 86, 190, 191, 69, 116, 190, 
  197, 184, 95, 61, 71, 10, 3, 61, 148, 93, 54, 62, 
  200, 42, 75, 190, 18, 26, 183, 58, 1, 186, 144, 189, 
  202, 59, 52, 190, 66, 237, 165, 190, 75, 187, 114, 61, 
  95, 57, 244, 62, 195, 52, 131, 189, 23, 2, 127, 190, 
  224, 17, 15, 190, 54, 43, 99, 189, 15, 92, 107, 60, 
  181, 45, 253, 190, 121, 49, 131, 62, 214, 242, 231, 60, 
  252, 206, 57, 62, 223, 102, 159, 62, 55, 203, 77, 62, 
  151, 157, 17, 62, 41, 69, 102, 62, 207, 3, 30, 61, 
  2, 184, 99, 62, 87, 94, 121, 189, 181, 19, 102, 59, 
  18, 84, 252, 189, 201, 72, 98, 190, 218, 59, 90, 189, 
  117, 237, 239, 189, 63, 1, 238, 189, 76, 107, 6, 62, 
  123, 88, 23, 190, 71, 60, 129, 62, 36, 12, 68, 62, 
  73, 17, 188, 189, 248, 0, 197, 188, 162, 2, 7, 190, 
  135, 17, 238, 189, 240, 84, 25, 62, 106, 107, 160, 62, 
  163, 108, 55, 190, 110, 7, 16, 62, 122, 200, 112, 190, 
  249, 235, 103, 191, 226, 52, 114, 190, 104, 30, 162, 62, 
  138, 122, 133, 62, 94, 145, 90, 190, 38, 178, 62, 62, 
  252, 118, 37, 63, 160, 169, 117, 61, 106, 25, 55, 189, 
  224, 106, 25, 62, 198, 190, 93, 189, 78, 180, 5, 191, 
  228, 71, 158, 61, 56, 84, 10, 62, 67, 19, 79, 62, 
  67, 135, 148, 191, 171, 63, 131, 188, 163, 253, 95, 62, 
  45, 255, 13, 190, 126, 1, 64, 62, 235, 43, 9, 62, 
  221, 149, 125, 61, 187, 133, 32, 190, 160, 232, 65, 190, 
  152, 194, 155, 191, 79, 242, 1, 63, 199, 2, 201, 62, 
  70, 68, 241, 189, 252, 162, 237, 189, 20, 207, 168, 61, 
  93, 184, 223, 62, 86, 36, 185, 61, 95, 59, 65, 60, 
  193, 120, 195, 189, 153, 120, 49, 60, 206, 13, 248, 61, 
  160, 38, 84, 60, 110, 112, 210, 62, 66, 117, 214, 62, 
  140, 133, 173, 190, 139, 136, 112, 189, 90, 166, 143, 61, 
  79, 185, 245, 188, 79, 11, 166, 62, 239, 229, 145, 61, 
  214, 57, 238, 190, 186, 220, 202, 189, 94, 14, 242, 189, 
  61, 127, 37, 62, 166, 174, 249, 189, 146, 98, 39, 63, 
  235, 83, 32, 191, 188, 215, 95, 62, 49, 55, 35, 62, 
  218, 251, 134, 191, 104, 19, 68, 61, 141, 24, 12, 189, 
  44, 237, 170, 190, 83, 130, 161, 61, 27, 128, 12, 62, 
  1, 118, 195, 190, 82, 17, 107, 190, 78, 25, 86, 189, 
  151, 162, 29, 62, 100, 204, 222, 62, 56, 74, 109, 62, 
  220, 65, 195, 62, 132, 238, 150, 62, 205, 189, 212, 62, 
  233, 176, 6, 63, 242, 119, 230, 62, 24, 199, 1, 63, 
  1, 187, 199, 62, 137, 145, 242, 61, 193, 41, 160, 62, 
  190, 67, 123, 62, 66, 53, 148, 62, 145, 75, 47, 62, 
  148, 90, 68, 62, 193, 173, 220, 62, 134, 166, 30, 62, 
  37, 222, 91, 62, 80, 236, 3, 63, 82, 127, 236, 62, 
  158, 33, 200, 62, 222, 158, 22, 63, 201, 81, 188, 62, 
  16, 176, 14, 63, 64, 138, 215, 62, 126, 206, 164, 62, 
  168, 231, 97, 62, 67, 182, 153, 61, 76, 183, 165, 62, 
  100, 175, 125, 62, 166, 24, 75, 62, 60, 74, 166, 62, 
  247, 166, 43, 62, 105, 215, 14, 63, 96, 135, 5, 63, 
  81, 166, 243, 62, 149, 108, 180, 62, 159, 229, 108, 63, 
  177, 234, 195, 62, 84, 181, 130, 62, 141, 32, 148, 62, 
  15, 74, 173, 62, 179, 54, 153, 62, 101, 239, 145, 62, 
  175, 16, 202, 61, 227, 34, 143, 62, 13, 52, 0, 63, 
  89, 239, 80, 62, 99, 2, 179, 62, 13, 56, 244, 61, 
  21, 210, 116, 62, 221, 194, 218, 62, 145, 34, 34, 63, 
  200, 73, 253, 61, 110, 97, 235, 62, 140, 175, 148, 62, 
  235, 71, 10, 63, 199, 124, 9, 63, 174, 187, 123, 61, 
  254, 197, 23, 63, 215, 13, 57, 62, 111, 254, 1, 62, 
  195, 179, 185, 62, 245, 176, 204, 190, 116, 170, 134, 190, 
  167, 7, 143, 62, 149, 178, 246, 62, 52, 13, 230, 190, 
  66, 61, 191, 62, 230, 18, 233, 62, 213, 54, 196, 189, 
  64, 226, 134, 190, 67, 8, 152, 189, 242, 34, 206, 62, 
  94, 87, 44, 189, 201, 26, 149, 190, 111, 11, 43, 188, 
  235, 116, 174, 190, 11, 203, 179, 61, 11, 13, 251, 188, 
  149, 226, 147, 190, 57, 19, 242, 61, 206, 155, 75, 62, 
  194, 34, 152, 60, 8, 207, 221, 189, 45, 52, 59, 61, 
  247, 253, 125, 190, 44, 234, 169, 60, 188, 198, 81, 62, 
  74, 129, 69, 62, 135, 163, 134, 62, 3, 72, 24, 190, 
  244, 0, 137, 190, 98, 153, 224, 60, 160, 151, 43, 63, 
  124, 178, 9, 63, 67, 166, 239, 62, 198, 38, 32, 191, 
  144, 46, 36, 63, 145, 220, 202, 62, 193, 34, 26, 63, 
  163, 227, 170, 190, 106, 121, 140, 62, 212, 229, 144, 190, 
  93, 15, 181, 189, 229, 136, 205, 190, 23, 118, 200, 61, 
  68, 132, 130, 190, 27, 22, 218, 62, 14, 231, 2, 190, 
  180, 196, 129, 61, 160, 22, 3, 190, 99, 104, 157, 190, 
  116, 55, 20, 63, 160, 161, 27, 62, 89, 210, 179, 61, 
  201, 200, 169, 190, 176, 160, 255, 61, 49, 178, 178, 61, 
  239, 220, 30, 189, 182, 105, 71, 188, 79, 16, 80, 190, 
  50, 40, 33, 190, 131, 144, 203, 190, 50, 96, 37, 62, 
  5, 253, 170, 61, 166, 196, 101, 61, 12, 83, 23, 63, 
  227, 211, 136, 62, 117, 177, 60, 62, 193, 43, 203, 61, 
  210, 150, 3, 63, 220, 109, 169, 62, 188, 130, 0, 63, 
  248, 167, 128, 62, 100, 135, 220, 62, 73, 245, 106, 62, 
  161, 171, 197, 62, 38, 197, 93, 62, 47, 20, 187, 62, 
  58, 119, 188, 62, 134, 110, 244, 62, 170, 30, 38, 62, 
  132, 6, 19, 63, 178, 133, 184, 62, 80, 147, 145, 62, 
  40, 44, 213, 62, 175, 11, 42, 62, 39, 28, 66, 61, 
  230, 105, 74, 62, 45, 245, 210, 62, 103, 89, 136, 62, 
  44, 168, 22, 63, 251, 45, 246, 59, 141, 149, 146, 62, 
  228, 212, 224, 62, 174, 186, 164, 62, 125, 200, 247, 62, 
  221, 63, 154, 61, 77, 249, 188, 62, 31, 73, 202, 61, 
  24, 254, 114, 62, 236, 82, 132, 62, 184, 24, 102, 62, 
  132, 51, 176, 62, 93, 211, 48, 63, 23, 16, 11, 63, 
  39, 66, 233, 62, 253, 132, 20, 63, 248, 2, 88, 62, 
  168, 41, 226, 62, 227, 94, 163, 62, 21, 207, 135, 62, 
  212, 103, 63, 62, 200, 115, 39, 62, 209, 246, 250, 62, 
  121, 168, 139, 62, 84, 192, 215, 61, 53, 221, 233, 62, 
  206, 4, 14, 62, 57, 227, 192, 62, 216, 9, 221, 62, 
  47, 251, 167, 62, 197, 199, 27, 63, 80, 105, 240, 62, 
  38, 144, 213, 62, 160, 161, 109, 62, 246, 169, 205, 62, 
  144, 90, 146, 62, 177, 1, 67, 62, 148, 91, 244, 62, 
  127, 207, 53, 62, 234, 221, 217, 187, 124, 125, 58, 190, 
  188, 3, 114, 188, 109, 213, 130, 190, 194, 146, 106, 190, 
  250, 141, 207, 62, 159, 187, 168, 61, 235, 97, 44, 63, 
  43, 47, 181, 62, 9, 100, 136, 190, 100, 177, 45, 62, 
  166, 255, 0, 63, 198, 234, 132, 62, 78, 154, 151, 62, 
  233, 138, 232, 190, 157, 115, 124, 189, 72, 137, 114, 189, 
  198, 219, 240, 61, 250, 2, 135, 190, 210, 4, 8, 60, 
  220, 54, 129, 190, 88, 185, 56, 62, 89, 193, 78, 62, 
  16, 22, 237, 189, 240, 246, 160, 190, 230, 181, 54, 190, 
  167, 137, 178, 190, 248, 10, 139, 190, 225, 125, 11, 63, 
  120, 234, 18, 190, 164, 114, 119, 189, 82, 166, 37, 190, 
  80, 147, 179, 190, 47, 214, 78, 62, 7, 221, 83, 61, 
  65, 154, 141, 60, 160, 105, 60, 189, 3, 83, 199, 62, 
  117, 162, 52, 189, 156, 140, 88, 61, 188, 208, 145, 190, 
  221, 171, 124, 190, 225, 218, 193, 189, 169, 54, 134, 62, 
  54, 202, 42, 190, 143, 173, 239, 61, 149, 7, 216, 189, 
  51, 243, 255, 61, 145, 245, 169, 189, 222, 157, 159, 60, 
  5, 198, 141, 61, 122, 244, 250, 189, 249, 253, 2, 189, 
  214, 190, 35, 62, 222, 249, 104, 190, 142, 204, 78, 61, 
  127, 222, 101, 190, 82, 202, 206, 61, 30, 74, 177, 60, 
  195, 230, 42, 61, 153, 175, 87, 62, 114, 254, 47, 189, 
  20, 87, 95, 190, 58, 91, 176, 62, 4, 162, 182, 62, 
  121, 13, 73, 62, 62, 46, 15, 62, 24, 208, 150, 62, 
  76, 66, 163, 62, 229, 249, 161, 62, 29, 157, 237, 62, 
  98, 214, 223, 62, 5, 11, 217, 62, 144, 215, 5, 63, 
  184, 46, 191, 62, 116, 58, 240, 60, 177, 154, 244, 62, 
  212, 30, 245, 62, 181, 106, 237, 62, 247, 163, 71, 62, 
  143, 160, 228, 61, 50, 194, 150, 61, 194, 96, 68, 62, 
  215, 210, 220, 62, 219, 211, 0, 63, 40, 56, 145, 62, 
  184, 35, 237, 62, 114, 229, 134, 62, 123, 196, 19, 62, 
  117, 96, 146, 62, 8, 109, 225, 62, 145, 169, 90, 62, 
  189, 225, 112, 62, 164, 242, 169, 62, 199, 253, 221, 61, 
  108, 1, 5, 62, 192, 53, 141, 62, 89, 193, 179, 62, 
  6, 216, 211, 62, 216, 103, 34, 62, 216, 16, 1, 63, 
  106, 187, 225, 62, 14, 76, 5, 63, 238, 206, 226, 62, 
  65, 154, 131, 62, 170, 30, 128, 62, 138, 98, 223, 62, 
  127, 41, 27, 62, 250, 85, 170, 62, 144, 29, 145, 62, 
  198, 144, 206, 62, 189, 174, 102, 62, 162, 24, 251, 62, 
  129, 113, 155, 62, 114, 243, 174, 61, 101, 212, 227, 62, 
  12, 198, 134, 62, 176, 252, 77, 62, 242, 239, 201, 62, 
  180, 3, 4, 63, 29, 249, 129, 62, 222, 24, 54, 62, 
  116, 161, 104, 62, 64, 154, 138, 62, 32, 159, 2, 63, 
  62, 14, 169, 62, 14, 207, 198, 62, 236, 193, 12, 63, 
  14, 95, 72, 62, 93, 163, 196, 60, 226, 146, 181, 62, 
  174, 95, 230, 62, 172, 236, 186, 62, 57, 7, 241, 62, 
  109, 99, 222, 61, 140, 99, 24, 63, 149, 7, 217, 62, 
  169, 205, 60, 62, 241, 82, 156, 62, 210, 104, 68, 61, 
  168, 236, 177, 62, 2, 71, 143, 62, 72, 111, 158, 62, 
  157, 188, 47, 62, 235, 32, 161, 62, 244, 205, 46, 62, 
  204, 81, 210, 61, 3, 91, 8, 63, 248, 249, 165, 62, 
  28, 66, 16, 63, 176, 251, 37, 62, 25, 71, 102, 62, 
  36, 21, 13, 63, 252, 153, 77, 62, 173, 187, 242, 62, 
  81, 35, 94, 62, 2, 31, 27, 63, 153, 199, 144, 61, 
  228, 194, 86, 62, 201, 191, 198, 62, 151, 15, 249, 61, 
  150, 118, 13, 63, 41, 101, 5, 63, 204, 212, 164, 62, 
  202, 110, 89, 62, 184, 138, 212, 62, 117, 251, 187, 62, 
  169, 175, 246, 62, 165, 240, 183, 62, 93, 15, 26, 63, 
  138, 207, 232, 61, 29, 30, 136, 62, 85, 65, 3, 63, 
  18, 71, 248, 62, 239, 67, 141, 62, 118, 87, 39, 62, 
  3, 189, 103, 62, 164, 86, 250, 61, 212, 41, 24, 62, 
  193, 153, 54, 62, 60, 127, 138, 62, 223, 78, 11, 63, 
  44, 147, 233, 61, 144, 39, 99, 62, 252, 209, 66, 62, 
  31, 204, 6, 63, 84, 71, 190, 62, 163, 205, 212, 62, 
  77, 210, 26, 63, 20, 123, 2, 63, 93, 246, 230, 62, 
  105, 68, 11, 191, 125, 29, 145, 189, 19, 0, 225, 190, 
  127, 75, 30, 63, 211, 221, 56, 189, 152, 17, 55, 190, 
  145, 242, 242, 189, 109, 94, 22, 63, 113, 47, 175, 190, 
  99, 206, 250, 189, 205, 244, 193, 189, 160, 28, 40, 190, 
  77, 112, 158, 191, 178, 226, 205, 189, 86, 199, 233, 62, 
  105, 128, 204, 61, 111, 122, 123, 62, 196, 210, 15, 189, 
  221, 0, 24, 62, 10, 144, 23, 62, 190, 4, 53, 63, 
  20, 114, 66, 190, 116, 61, 22, 62, 248, 35, 57, 190, 
  103, 200, 17, 62, 26, 43, 155, 190, 146, 241, 71, 63, 
  196, 204, 118, 62, 143, 242, 157, 190, 63, 163, 37, 63, 
  106, 133, 138, 189, 58, 154, 98, 62, 44, 148, 179, 62, 
  233, 116, 100, 61, 98, 105, 25, 190, 149, 17, 17, 190, 
  75, 40, 152, 60, 42, 183, 28, 63, 145, 77, 196, 60, 
  195, 194, 146, 62, 136, 182, 15, 191, 168, 173, 49, 191, 
  254, 12, 23, 191, 80, 38, 143, 60, 85, 205, 47, 189, 
  79, 128, 164, 189, 225, 210, 130, 190, 102, 60, 189, 190, 
  183, 118, 5, 190, 152, 57, 8, 190, 232, 77, 47, 63, 
  170, 170, 162, 62, 72, 158, 235, 190, 166, 230, 139, 190, 
  154, 109, 133, 62, 223, 116, 232, 189, 121, 199, 107, 62, 
  246, 223, 144, 189, 55, 175, 184, 189, 9, 73, 172, 62, 
  129, 228, 174, 190, 221, 23, 56, 190, 243, 61, 175, 62, 
  125, 141, 235, 62, 10, 148, 4, 191, 51, 91, 56, 190, 
  154, 107, 59, 191, 109, 7, 169, 62, 27, 21, 27, 190, 
  176, 88, 246, 190, 125, 229, 11, 63, 127, 123, 18, 63, 
  38, 93, 144, 62, 72, 109, 191, 60, 217, 83, 67, 191, 
  129, 97, 166, 62, 195, 146, 192, 191, 50, 44, 152, 61, 
  212, 134, 235, 62, 179, 28, 172, 189, 113, 19, 56, 190, 
  232, 18, 161, 62, 196, 113, 150, 190, 165, 26, 238, 61, 
  112, 209, 183, 62, 116, 165, 131, 189, 139, 175, 45, 62, 
  224, 122, 109, 189, 79, 197, 24, 63, 169, 44, 136, 191, 
  4, 195, 61, 63, 47, 11, 178, 62, 224, 97, 159, 189, 
  84, 106, 63, 63, 235, 102, 224, 62, 253, 203, 58, 63, 
  223, 12, 164, 62, 129, 15, 137, 191, 136, 207, 196, 189, 
  25, 148, 4, 190, 11, 147, 54, 191, 48, 133, 26, 191, 
  86, 189, 45, 190, 222, 26, 83, 62, 29, 100, 22, 191, 
  76, 46, 135, 191, 190, 11, 235, 190, 254, 134, 168, 190, 
  236, 162, 165, 62, 230, 127, 204, 61, 9, 199, 94, 191, 
  66, 0, 250, 190, 249, 120, 42, 59, 87, 182, 148, 60, 
  197, 125, 158, 190, 1, 20, 92, 63, 113, 30, 145, 191, 
  138, 200, 133, 190, 78, 179, 18, 62, 161, 154, 152, 191, 
  162, 229, 81, 62, 209, 247, 203, 61, 94, 61, 149, 190, 
  105, 199, 225, 62, 130, 191, 52, 62, 149, 35, 119, 189, 
  238, 92, 245, 62, 62, 80, 2, 63, 57, 82, 175, 190, 
  171, 111, 57, 190, 148, 120, 29, 189, 35, 65, 63, 61, 
  11, 150, 193, 62, 168, 128, 60, 191, 90, 54, 89, 191, 
  58, 8, 122, 62, 70, 235, 198, 190, 67, 126, 49, 61, 
  169, 220, 133, 189, 183, 254, 204, 60, 42, 164, 203, 190, 
  55, 213, 181, 190, 250, 64, 137, 61, 97, 48, 135, 62, 
  59, 154, 14, 62, 119, 35, 222, 59, 22, 150, 17, 189, 
  105, 161, 208, 61, 50, 7, 17, 61, 81, 226, 93, 60, 
  255, 40, 26, 190, 227, 187, 75, 187, 204, 97, 196, 62, 
  75, 251, 124, 62, 49, 85, 14, 63, 64, 198, 36, 190, 
  63, 97, 42, 189, 249, 118, 85, 191, 134, 66, 194, 62, 
  218, 37, 130, 62, 232, 22, 25, 62, 20, 243, 132, 60, 
  158, 198, 199, 190, 57, 244, 72, 59, 135, 204, 221, 60, 
  164, 12, 28, 190, 63, 37, 200, 190, 166, 61, 94, 62, 
  177, 229, 231, 60, 250, 192, 120, 190, 80, 185, 199, 189, 
  252, 65, 10, 61, 51, 169, 95, 62, 126, 81, 68, 190, 
  104, 70, 144, 188, 130, 192, 102, 190, 198, 181, 144, 190, 
  148, 13, 10, 190, 178, 17, 236, 61, 35, 20, 232, 61, 
  153, 7, 21, 191, 148, 4, 156, 190, 6, 72, 127, 190, 
  163, 218, 109, 62, 155, 180, 160, 62, 244, 118, 53, 62, 
  69, 191, 86, 190, 176, 44, 85, 187, 79, 27, 96, 190, 
  101, 142, 81, 189, 157, 163, 70, 62, 210, 239, 232, 61, 
  89, 78, 53, 62, 184, 231, 158, 62, 230, 204, 155, 62, 
  111, 5, 111, 62, 102, 131, 214, 62, 115, 251, 199, 62, 
  246, 162, 136, 62, 231, 29, 243, 62, 247, 210, 134, 62, 
  209, 27, 72, 62, 188, 248, 249, 62, 106, 197, 217, 62, 
  163, 102, 130, 62, 28, 87, 54, 62, 103, 45, 136, 61, 
  254, 91, 111, 62, 102, 254, 116, 62, 20, 50, 7, 63, 
  140, 100, 222, 62, 67, 200, 205, 61, 212, 114, 87, 62, 
  182, 43, 141, 62, 121, 184, 10, 63, 157, 47, 32, 62, 
  242, 125, 16, 63, 167, 190, 66, 62, 196, 142, 254, 62, 
  131, 5, 211, 62, 32, 120, 131, 62, 158, 30, 41, 63, 
  213, 74, 96, 62, 29, 97, 218, 61, 69, 3, 221, 60, 
  254, 7, 226, 62, 171, 177, 25, 63, 144, 64, 152, 61, 
  172, 117, 38, 62, 105, 254, 187, 62, 28, 44, 40, 63, 
  231, 227, 188, 61, 99, 116, 116, 62, 190, 53, 243, 62, 
  222, 11, 222, 62, 155, 241, 108, 62, 66, 63, 180, 62, 
  129, 56, 147, 62, 194, 130, 185, 62, 137, 151, 1, 62, 
  33, 220, 155, 62, 116, 80, 179, 62, 100, 128, 217, 62, 
  234, 79, 220, 62, 219, 223, 64, 62, 93, 195, 218, 62, 
  125, 171, 104, 62, 59, 170, 151, 62, 214, 232, 140, 62, 
  196, 125, 142, 62, 18, 209, 160, 62, 144, 58, 223, 61, 
  106, 102, 10, 63, 192, 201, 17, 63, 242, 123, 106, 62, 
  148, 234, 150, 62, 85, 145, 67, 62, 209, 151, 14, 63, 
  202, 162, 203, 62, 206, 66, 145, 61, 67, 105, 110, 62, 
  13, 48, 250, 62, 235, 209, 201, 62, 219, 19, 197, 60, 
  142, 110, 159, 62, 130, 61, 22, 62, 88, 243, 26, 62, 
  13, 69, 252, 62, 135, 12, 205, 62, 243, 42, 94, 62, 
  145, 195, 171, 62, 210, 92, 252, 62, 109, 58, 214, 62, 
  191, 36, 98, 62, 94, 147, 187, 62, 72, 242, 4, 62, 
  41, 119, 194, 62, 190, 10, 217, 62, 237, 241, 255, 62, 
  27, 136, 202, 62, 3, 25, 205, 62, 180, 158, 1, 63, 
  184, 177, 172, 62, 152, 107, 140, 62, 160, 81, 248, 62, 
  185, 154, 185, 62, 205, 174, 0, 63, 51, 179, 94, 62, 
  74, 21, 101, 61, 57, 184, 173, 62, 16, 213, 231, 62, 
  211, 82, 152, 62, 69, 238, 246, 62, 228, 237, 165, 62, 
  26, 80, 48, 63, 129, 230, 40, 62, 226, 252, 250, 62, 
  101, 72, 213, 62, 117, 222, 193, 62, 188, 176, 218, 62, 
  9, 160, 134, 62, 196, 73, 127, 62, 17, 166, 187, 62, 
  127, 53, 76, 62, 53, 71, 184, 62, 148, 186, 219, 61, 
  93, 179, 143, 62, 155, 78, 140, 62, 179, 1, 108, 62, 
  72, 13, 151, 61, 15, 239, 221, 62, 235, 120, 19, 62, 
  20, 25, 193, 62, 183, 234, 226, 62, 133, 253, 250, 62, 
  19, 20, 193, 62, 201, 44, 41, 62, 247, 46, 151, 62, 
  34, 250, 18, 63, 191, 50, 195, 62, 12, 29, 13, 63, 
  67, 138, 16, 63, 195, 198, 8, 63, 209, 129, 205, 62, 
  199, 220, 220, 61, 90, 205, 14, 63, 247, 192, 24, 63, 
  57, 14, 91, 62, 104, 225, 197, 62, 122, 101, 14, 62, 
  237, 243, 227, 62, 219, 244, 30, 62, 35, 218, 91, 62, 
  173, 66, 224, 61, 213, 182, 10, 63, 125, 201, 2, 63, 
  243, 25, 25, 63, 171, 47, 218, 62, 61, 89, 212, 62, 
  155, 154, 96, 62, 1, 29, 7, 63, 32, 36, 98, 62, 
  241, 248, 29, 63, 160, 177, 144, 62, 242, 147, 212, 61, 
  207, 76, 200, 62, 240, 105, 194, 61, 146, 50, 195, 62, 
  91, 104, 116, 62, 180, 234, 26, 63, 110, 144, 233, 62, 
  77, 27, 211, 62, 174, 212, 192, 62, 92, 241, 12, 63, 
  47, 255, 196, 62, 104, 69, 136, 62, 221, 76, 3, 63, 
  230, 113, 184, 62, 58, 214, 107, 63, 88, 253, 237, 62, 
  154, 132, 77, 62, 159, 77, 182, 62, 124, 56, 133, 62, 
  126, 245, 51, 62, 193, 116, 120, 62, 113, 186, 28, 62, 
  206, 215, 194, 62, 210, 9, 26, 63, 150, 217, 209, 61, 
  84, 1, 165, 62, 176, 46, 6, 62, 246, 208, 63, 62, 
  62, 136, 18, 62, 194, 115, 8, 63, 11, 99, 147, 62, 
  192, 165, 229, 62, 168, 240, 88, 62, 248, 3, 155, 62, 
  21, 38, 129, 62, 163, 155, 38, 61, 211, 109, 211, 62, 
  247, 58, 181, 62, 107, 202, 24, 62, 214, 173, 183, 61, 
  0, 0, 6, 0, 8, 0, 4, 0, 6, 0, 0, 0, 
  4, 0, 0, 0, 128, 0, 0, 0, 28, 227, 188, 191, 
  2, 205, 182, 191, 115, 29, 16, 63, 152, 74, 62, 63, 
  166, 225, 121, 189, 202, 217, 213, 62, 96, 84, 175, 190, 
  178, 62, 51, 63, 231, 194, 196, 191, 247, 175, 218, 191, 
  14, 21, 47, 63, 141, 210, 27, 63, 31, 7, 43, 63, 
  2, 86, 17, 63, 229, 188, 225, 191, 222, 239, 192, 62, 
  155, 61, 49, 191, 214, 6, 106, 191, 96, 35, 29, 191, 
  50, 221, 131, 191, 89, 87, 179, 62, 216, 9, 72, 191, 
  219, 147, 226, 62, 192, 73, 218, 190, 99, 105, 30, 63, 
  134, 105, 25, 63, 123, 96, 163, 191, 161, 101, 182, 191, 
  254, 112, 121, 191, 41, 14, 238, 62, 16, 119, 63, 63, 
  169, 253, 194, 62, 48, 251, 255, 255, 52, 251, 255, 255, 
  15, 0, 0, 0, 77, 76, 73, 82, 32, 67, 111, 110, 
  118, 101, 114, 116, 101, 100, 46, 0, 1, 0, 0, 0, 
  20, 0, 0, 0, 0, 0, 14, 0, 24, 0, 20, 0, 
  16, 0, 12, 0, 8, 0, 4, 0, 14, 0, 0, 0, 
  20, 0, 0, 0, 28, 0, 0, 0, 216, 0, 0, 0, 
  220, 0, 0, 0, 224, 0, 0, 0, 4, 0, 0, 0, 
  109, 97, 105, 110, 0, 0, 0, 0, 3, 0, 0, 0, 
  128, 0, 0, 0, 56, 0, 0, 0, 4, 0, 0, 0, 
  154, 255, 255, 255, 16, 0, 0, 0, 0, 0, 0, 8, 
  12, 0, 0, 0, 16, 0, 0, 0, 172, 251, 255, 255, 
  1, 0, 0, 0, 9, 0, 0, 0, 3, 0, 0, 0, 
  8, 0, 0, 0, 1, 0, 0, 0, 3, 0, 0, 0, 
  202, 255, 255, 255, 16, 0, 0, 0, 0, 0, 0, 8, 
  16, 0, 0, 0, 20, 0, 0, 0, 186, 255, 255, 255, 
  0, 0, 0, 1, 1, 0, 0, 0, 8, 0, 0, 0, 
  3, 0, 0, 0, 7, 0, 0, 0, 2, 0, 0, 0, 
  4, 0, 0, 0, 0, 0, 14, 0, 22, 0, 0, 0, 
  16, 0, 12, 0, 11, 0, 4, 0, 14, 0, 0, 0, 
  24, 0, 0, 0, 0, 0, 0, 8, 24, 0, 0, 0, 
  28, 0, 0, 0, 0, 0, 6, 0, 8, 0, 7, 0, 
  6, 0, 0, 0, 0, 0, 0, 1, 1, 0, 0, 0, 
  7, 0, 0, 0, 3, 0, 0, 0, 0, 0, 0, 0, 
  6, 0, 0, 0, 5, 0, 0, 0, 1, 0, 0, 0, 
  9, 0, 0, 0, 1, 0, 0, 0, 0, 0, 0, 0, 
  10, 0, 0, 0, 124, 3, 0, 0, 36, 3, 0, 0, 
  204, 2, 0, 0, 144, 2, 0, 0, 52, 2, 0, 0, 
  220, 1, 0, 0, 144, 1, 0, 0, 252, 0, 0, 0, 
  96, 0, 0, 0, 4, 0, 0, 0, 194, 252, 255, 255, 
  0, 0, 0, 1, 20, 0, 0, 0, 28, 0, 0, 0, 
  28, 0, 0, 0, 10, 0, 0, 0, 52, 0, 0, 0, 
  2, 0, 0, 0, 255, 255, 255, 255, 1, 0, 0, 0, 
  172, 252, 255, 255, 27, 0, 0, 0, 83, 116, 97, 116, 
  101, 102, 117, 108, 80, 97, 114, 116, 105, 116, 105, 111, 
  110, 101, 100, 67, 97, 108, 108, 95, 49, 58, 48, 0, 
  2, 0, 0, 0, 1, 0, 0, 0, 1, 0, 0, 0, 
  26, 253, 255, 255, 0, 0, 0, 1, 20, 0, 0, 0, 
  28, 0, 0, 0, 28, 0, 0, 0, 9, 0, 0, 0, 
  116, 0, 0, 0, 2, 0, 0, 0, 255, 255, 255, 255, 
  32, 0, 0, 0, 4, 253, 255, 255, 88, 0, 0, 0, 
  115, 101, 113, 117, 101, 110, 116, 105, 97, 108, 95, 49, 
  47, 100, 101, 110, 115, 101, 95, 49, 95, 50, 47, 77, 
  97, 116, 77, 117, 108, 59, 115, 101, 113, 117, 101, 110, 
  116, 105, 97, 108, 95, 49, 47, 100, 101, 110, 115, 101, 
  95, 49, 95, 50, 47, 82, 101, 108, 117, 59, 115, 101, 
  113, 117, 101, 110, 116, 105, 97, 108, 95, 49, 47, 100, 
  101, 110, 115, 101, 95, 49, 95, 50, 47, 66, 105, 97, 
  115, 65, 100, 100, 0, 0, 0, 0, 2, 0, 0, 0, 
  1, 0, 0, 0, 32, 0, 0, 0, 178, 253, 255, 255, 
  0, 0, 0, 1, 20, 0, 0, 0, 28, 0, 0, 0, 
  28, 0, 0, 0, 8, 0, 0, 0, 108, 0, 0, 0, 
  2, 0, 0, 0, 255, 255, 255, 255, 64, 0, 0, 0, 
  156, 253, 255, 255, 82, 0, 0, 0, 115, 101, 113, 117, 
  101, 110, 116, 105, 97, 108, 95, 49, 47, 100, 101, 110, 
  115, 101, 95, 49, 47, 77, 97, 116, 77, 117, 108, 59, 
  115, 101, 113, 117, 101, 110, 116, 105, 97, 108, 95, 49, 
  47, 100, 101, 110, 115, 101, 95, 49, 47, 82, 101, 108, 
  117, 59, 115, 101, 113, 117, 101, 110, 116, 105, 97, 108, 
  95, 49, 47, 100, 101, 110, 115, 101, 95, 49, 47, 66, 
  105, 97, 115, 65, 100, 100, 0, 0, 2, 0, 0, 0, 
  1, 0, 0, 0, 64, 0, 0, 0, 150, 254, 255, 255, 
  0, 0, 0, 1, 16, 0, 0, 0, 16, 0, 0, 0, 
  7, 0, 0, 0, 40, 0, 0, 0, 28, 254, 255, 255, 
  27, 0, 0, 0, 115, 101, 113, 117, 101, 110, 116, 105, 
  97, 108, 95, 49, 47, 100, 101, 110, 115, 101, 95, 49, 
  47, 77, 97, 116, 77, 117, 108, 0, 2, 0, 0, 0, 
  64, 0, 0, 0, 5, 0, 0, 0, 222, 254, 255, 255, 
  0, 0, 0, 1, 16, 0, 0, 0, 16, 0, 0, 0, 
  6, 0, 0, 0, 56, 0, 0, 0, 100, 254, 255, 255, 
  43, 0, 0, 0, 115, 101, 113, 117, 101, 110, 116, 105, 
  97, 108, 95, 49, 47, 100, 101, 110, 115, 101, 95, 49, 
  47, 66, 105, 97, 115, 65, 100, 100, 47, 82, 101, 97, 
  100, 86, 97, 114, 105, 97, 98, 108, 101, 79, 112, 0, 
  1, 0, 0, 0, 64, 0, 0, 0, 50, 255, 255, 255, 
  0, 0, 0, 1, 16, 0, 0, 0, 16, 0, 0, 0, 
  5, 0, 0, 0, 60, 0, 0, 0, 184, 254, 255, 255, 
  45, 0, 0, 0, 115, 101, 113, 117, 101, 110, 116, 105, 
  97, 108, 95, 49, 47, 100, 101, 110, 115, 101, 95, 49, 
  95, 50, 47, 66, 105, 97, 115, 65, 100, 100, 47, 82, 
  101, 97, 100, 86, 97, 114, 105, 97, 98, 108, 101, 79, 
  112, 0, 0, 0, 1, 0, 0, 0, 32, 0, 0, 0, 
  138, 255, 255, 255, 0, 0, 0, 1, 16, 0, 0, 0, 
  16, 0, 0, 0, 4, 0, 0, 0, 28, 0, 0, 0, 
  16, 255, 255, 255, 15, 0, 0, 0, 97, 114, 105, 116, 
  104, 46, 99, 111, 110, 115, 116, 97, 110, 116, 50, 0, 
  1, 0, 0, 0, 1, 0, 0, 0, 194, 255, 255, 255, 
  0, 0, 0, 1, 16, 0, 0, 0, 16, 0, 0, 0, 
  3, 0, 0, 0, 28, 0, 0, 0, 72, 255, 255, 255, 
  15, 0, 0, 0, 97, 114, 105, 116, 104, 46, 99, 111, 
  110, 115, 116, 97, 110, 116, 49, 0, 2, 0, 0, 0, 
  32, 0, 0, 0, 64, 0, 0, 0, 0, 0, 22, 0, 
  24, 0, 20, 0, 0, 0, 16, 0, 12, 0, 8, 0, 
  0, 0, 0, 0, 0, 0, 7, 0, 22, 0, 0, 0, 
  0, 0, 0, 1, 16, 0, 0, 0, 16, 0, 0, 0, 
  2, 0, 0, 0, 28, 0, 0, 0, 156, 255, 255, 255, 
  14, 0, 0, 0, 97, 114, 105, 116, 104, 46, 99, 111, 
  110, 115, 116, 97, 110, 116, 0, 0, 2, 0, 0, 0, 
  1, 0, 0, 0, 32, 0, 0, 0, 0, 0, 22, 0, 
  28, 0, 24, 0, 0, 0, 20, 0, 16, 0, 12, 0, 
  0, 0, 0, 0, 8, 0, 7, 0, 22, 0, 0, 0, 
  0, 0, 0, 1, 20, 0, 0, 0, 32, 0, 0, 0, 
  32, 0, 0, 0, 1, 0, 0, 0, 60, 0, 0, 0, 
  2, 0, 0, 0, 255, 255, 255, 255, 5, 0, 0, 0, 
  4, 0, 4, 0, 4, 0, 0, 0, 30, 0, 0, 0, 
  115, 101, 114, 118, 105, 110, 103, 95, 100, 101, 102, 97, 
  117, 108, 116, 95, 107, 101, 114, 97, 115, 95, 116, 101, 
  110, 115, 111, 114, 58, 48, 0, 0, 2, 0, 0, 0, 
  1, 0, 0, 0, 5, 0, 0, 0, 1, 0, 0, 0, 
  16, 0, 0, 0, 12, 0, 12, 0, 11, 0, 0, 0, 
  0, 0, 4, 0, 12, 0, 0, 0, 9, 0, 0, 0, 
  0, 0, 0, 9, 
};

const int calorie_nn_float_tflite_len = 11872;

#endif  // CALORIE_MODEL_FLOAT_H
